memory_initialization_radix=2;
memory_initialization_vector=
0000000001010000000000001111010001011100000000000000000000111000000000000000000000110011000110100000000000101100000000000000111100000000111110110101011100000000000000000001001100000000001011010010001000000000010011000000000000000000111000100000000000100110,
1111000000011000000000000000000011100101010111100000000000000000000000000000000001111111011111111000000100000000011111000000000000000000111110001000001000000000000000001000000100000000110111111000110100000000000000000011100011001001000000000010100100000000,
0111111100000000000000000111111100000000011111111001101100000000110110010111111100000000000000000000000000000111000000000110001110011000100000010000000000000000001101010000000010000001000000000000000010000001110000100000000000000000000111111000000100000000,
0000000011001001000000001101011000000000001000101100010100000000000000000000000010111110110000111101100000010000000000000000000000000000000011110001110000000000001011100000000011101110000000000001000100000000000000000010001000100101000000000000000000100100,
0000000010000001101111010000000000000000001110001110010000000000000000000000000000011011001011100000000000000000100000011000000100000000000000000101011111101101000000000000000000100110000000000000000000000000001111000001001000000000000000001000000110100100,
0000000010000001100001000000000000110000000110000000000000000000101000100000000001010111000000000110110100000000000000001010011000000000000000000110100111000011000000000111111100000000101101111101111000000000001100000000000001001001110110010000000000000000,
0000000000000000110000100001111100000000110011111101011000000000101001110001010100000000000000000000000000000000100000011000000100000000111111100001011000000000110100101011110000000000000000001100011100000000111001100000000010101001011110010000000000000000,
0000000010000001110111100000000000000000101011111101111100000000110110000000000010010110000000000101100100000000110101010000000000000000000000000111111100011111010000110000000000000000101110000000000000000000111010111111010000000000000000000010100001100000,
1111110000000000001010010000000000000000000100001110110100000000000000000000011000010010000000001111100000000000111011100000000000001000000000000000000000000000111000101111100000000000000000000001010100000000000000001110101000001101000000001111100000000000,
0000000000000000110101110001110100000000000000001011011000010101001011000100000000000000000000001111101100101001000000000000000000000000000000000010100111001001000000000000100011111101000000000100001000010100000000000000000000000000000000001101110111110110,
0000000011000010000111100000000011010111000000000100101100000000000000000000000011111011001111000000000000000000001110001110110100110000010111010000000000000000000000001010001100001001000000001110110000000000000000000000010100011001000000000000000001111111,
0000000001111111011110000000000001111100000000000100100100000000000000001000000101111111000000000000000000000000100000011000000101111111011001110000000000000000000011110000000000000000100000010000000000000000000100010010111110011100000000000011011000000000,
0000000011100011111000100000000000000000000101110000000011101111000110000000000011100100000000001111000100011101000000000000000000000000110001000011000100000000000000000000000000001011111111000000000011110001000000000100000011111111000000000000000011100000,
0000000010000001000000000010011000000000000000001010001001001001000000000011100011000001000000000000000000000000101010101110011000000000111111010101100000000000000011010000000011111101000000000100101100000000011111110000000001001010111001100000000000000000,
0110110010001001000000000000000000101110000000000111111100000000000000000000000010000001100000010000000000111101000000000111111100000000000000000011101101100110000000000111110100000000011111110000000011011000000000001111000101111111000000000000000001111111,
0000000010010001011011000000000000000000000001110010011100000000000000000000000010011011100001000000000000000000100000010011011000000000011100010110000100000000000000000000101000000000011101000000000011010010101001010000000000000100000000000010010100000000,
0000000010101010000000001110111100000000000000000010001111101111000000000000110110100011000000000000000000000000110000111101000000010110000000001110111000000000000000000011010111100001000000001111100100000000001011000000000000011010000000001111111100000000,
0100110100000000000011100000000000110110000000000010101000000000000001010000000000000000100000010111111100000000000000000111111100000000110101110000000001111001000000000000000000010111011111111111101100000000000000001011011001111111000000000000000001111111,
0111111111100000000000000000000000000000010110000000000011111011110101110000000001111111000000001100000101111111000000000000000000000000010000001101101000000000000000001100000100000000001000100000000010100001000000001010001111010111000000001000101000000000,
1111100000000000111011110000000011011100000000001110110000000000000000000000000010101001111000110000000011101111110110000000000000000000001111110010000100000000000000000010100100000000111001010000000000101010000000001110110000001010000000000000000000111001,
0000000011111001110111110000000011110110000000001110101100000000110110001111100100000000000000000000000010111001100001010000000000000000111101010011110100000000101101000000000010000001000000001010100111000110000000000000000001011011000000001100111100000000,
1101111101111111000000000000000011010110000000000000000000101111000000000000101100000000011111110000000000000000110011011011101000000000011111110000000000010100001100010000000000000000110100101101111100000000000000001110011010000001000000000000000011011010,
0100111001111111000000000000000000001101000000000000000011111000110110110000000000000000100101000000111100000000011111110000000011011110110110000000000000000000110100110000000000000000011111110000000000000000110010001100010100000000010000000000000011100010,
0000000011001110000000001111011111011100000000001101001000000000000000001111110100000000010101000000011111100110000000000000000000000000000000000110110010110000110001010000000010000001000000000000000000111110111011110000000000000000010001100000000011010011,
0000000010000001110101000000000000110000000000001100001000000000110101110000000000000000011111110001010100000000001001010000000000000000000000000100100100010010000011111111111100000000000000000000000000000000000101011111000100000000111001100000000010000001,
0000000010011110101110010000000000000000001100000000000011111111000000000010010011100011000000000000010100000000000000001111011100000001000000000000100000000000001001000000000000000000001100010011001000000000000101110000000000110100000000000000000000001111,
0000000000101010000000000100001000000000001100110000000000100111000000000000000011000100010000001100011000100100000000000000000000000000000000001000011000001101000000001000000100000000001111010000000000000000100110101111111110111010000000000000000010110000,
0100000100000000000000000010101101001010001000110000000000000000000000000001110010110010000000000000000000000000001100000111111111111101101010100000000000000000000000000000000010111000000000110000000011101010010001000000000000000000000000001101101101010111,
0000000000000000101011100011110110001100000000000000000000001010000000000011101011111100000000000000000011101000100100000000000000000000000000000100110110110001000000001110111000000000010110100000000010011111000000000010111000001101110101100000000000000000,
0000000010000001010111000000000011111001000000000000000011010111000000000000000010000001100000010111111100000000110111110000000000000000000000000000011101101010100000010111111100000000000000001100111010011000000000000000000001111111000000000000000010000001,
0000000000011011110001000000000011101010000000000000000011111111111001100000111000000000000000000000000000000000010000100000001000000000101011100011110100000000001110000101010000000000000000000000000000000000000011101111010100101010000000000001110000000000,
0000000010000001000000001100111101111111000000000000000001101010000000000000000001111111101001000000000001111111100000010000000001111111010000000000000000000000011111111011100000000000000000000010100011001011000000000000000000000000100100100000000001111111,
0100111000000000010010110000000001101000001010100000000000000000001001101101010100000000000000000000000001000101000000001111011100000000000000000010001101100010011001011110110100000000000000000000000000001001000000001011010100000000000001000000000001001101,
1010100001000000000000000000000000000000000000000111111100111001001101110000000000000000001010001010011000000000000000001000000100000000001111001000000100000000000000001000000100000000000000101100010001010110000000000000000010000001000000000111111100000000,
0000000001111111000000000111111100100100000000001010110000000000000000000000000011010101100101011000000100000000000000000011101111010111000001010000000000000000001100000000000010000001000000000000000000000000000001011001110000000000001111111000010000000000,
0000000011100110111000100000000000000000001101101110011000000000000000000000000001000011111111111100010100000000110101010000000000010101000000000000000011111110001101000000000000000000000101011111101000000000111011110000000000000000000000001110100111110011,
1100111010100111000000000000000000000000000000001101011101000011001101010000000000000000010000100000000000000000100000011101101000000000000000000100110000001010001101001000000100000000000000000100111000000000000000000100110100000111000000000000000000000111,
0000000010000001101100110000000001100010000000000000000000000000101011100000000000100011000000000000000000000000001101101101001100000000100101110100101100000000000101110000000011010101000000001101110000000000000000110000000000000000000101000000000011011100,
1111111100000000000000000100011100000000111001010000000000000011000000000011110100000000100110000000000010110110100000010000000000000000101110110001011100000000000000001110011011100110000000000000000000000000110111001101011011101100000000001110000000000000,
0000000010000001000000001100101101001110000000001101110100000000000000000000100000000000000110000001010000111001000000000000000000011010000000000111111100000000000000000000000000110010101011010000000000000000111101001100010100000000000000000010100000111000,
0011001100000000001110100000000011100000000000000000000000000110000101100000000000000000111101000000000000000000001000101110010111111001000000000000000000111011000000000000000011000011000111000001010100000000000101100000000000000000001011101100100000000000,
0000000000000000111000110010111100000000000000001011101000011100000000000000000011110100111111101101001000000000000000000000001000000000000000000000111111000101000000001111111110110111000000000000000011110100101000010000000011100011101110010000000000000000,
0000000000000000000110001110011100000000000000000111111101100000000000001110110000000000110011001101001000000000000000001000110001001000000000000000000000110100110101000000000000000000000010110000000000000000011100000000101001111000000000000101110100000000,
0000000010011111000000001100000001010111010010110000000000000000000000000000000001111111111100010000000000000000100011111010100000011111111110110000000000000000001101000000000000000000100000010000000000111010000000000011101001000011000000000000000001111111,
0000000011100011111010100000000000110101000110010000000000000000111101000000000000000000000000100000000000000101000000000001011100000000111010000010000100000000000001110000000000000000111111100011100000000000000000000100100100000000101001001111001100000000,
1101000010111111000000000000000000100000000000000000000001111111000000000001111000010111000000001010101000000000101011100000000001011011000101110000000000000000000000001010011000000000111001010011111100111000000000000000000000000000111110000000000011101101,
0000000001111111011100000000000001111111000000000111111100000000000000000000000001111111100000010000000001111111000000000111111100000000100000010000000001000011000000000111111100000000011111000000000000110001000000000000100001111111000000000000000001111111,
0000000010000001010111110000000001000001000000001111111100000000000000000000000011010011100000011011101100000000100000010000000000000000000000000111111110100110000000000111111100000000011001000000000010111101111000000000000000110100000000001110000100000000,
1110111111111001000000000000000000010011000000001111011000000000000000000000000010001000001101100000000000000000100101101101000000000000001100110000000000001101001001100000000011110110000000000000000000000000001111010000000011000110000000000000000000000000,
1111101000000000000000001111111000010001000000001101111100000000110110000000000000000000100100010000000000000000010000010001110011101110000000000000000001101101101110110010011100000000000000001100010100000000000000000100001101111110000000000000000000001011,
0000000001001100011111110000000000000000011010000000000000101010111011100000000001111111000000001000000101110100000000000000000000000000001101101000000100000000000000001001010100000000001000101111010110100101000000000000000010110101000000000000000011111011,
0000000000000000110111011110100100000000111111111101110000000000001001000000000011011010000000000001001011110111000000000000000000000000011111111101111000000000000000000000010100101001000000000000000000001010000000000000101100011001000000000000000011101010,
0000000000011001001110010000000011110110000000001111101000000000111011000000000000000000000111010000000011000010101111010000000011001101000001010000000000000000000000000000000010000001001001111101000011100000000000000000000001111111000000000000000001111111,
0000000001011001111110100000000011000011000000001110001100000000000000000000000001001010011111110000000000000000110101101110111011011010000000000000000011011001100110100000000000000000110000100000000011111100010001000000000010110011000000000000000011010011,
0101110000000000011111110000000000000000111101100000000011100101000101010000000000000000110100001110101100000000000000001100000011110110000000001100000100000000000000000001001000000000011011100000000010100010110100010000000000000000000000001000000110111111,
1110000000000000001100100000000011111100000000000000000011111001001001100000000000000000111101100000000000000000000101011011111010011100000000000000000010111100110101110111111100000000000000001111010101000110000000000000000000000000000011110000010000000000,
0010001100000000000000001100101100000000000101000000000011110110000000001101101100000000010001110000001100000000000000001110111111101100000000000000000000000010000000000000000011101000110101011101001000000000000000001101110100000000000001010000000010100100,
0000000011001111101100100000000000000000010010111100110000000000000000000010101100000000110101111111101100000000000000001111000100000000000000000001101011111111000000000000100100000000001101000000000000000000000000000001100100101001000000000000000000010010,
0000000001111110010011010000000000000000010010100000000000010001000000010101000000000000000000001011011000010010000000000000000001000111000000000000000000010110000000111000000100000000000000001101001000000000000000001111110010010011000000000000000011010101,
0000000000001100000000000010010100110010001100100000000000000000111001110000000000000000100111101110101100000000011111110000000000000000000000000001110000101010000000000000000011001010000110000000000011011100000000001101000001101100000000000000000001111111,
0000000011101100111011000000000010000001000000000000000011101100000000000101100000000000001010110010110111010100000000000000000000000000111000100000000010000001000000001100111100000000001101011111010100000000000000000001111011110111000000001101101000000000,
0000000010000001001111100000000000100110000000001110010000000000111100010000000010001101000000000000000000000000000000010001001100000000100000011100010100000000000000000111111100000000001100010000000000000000001011011111101001111111000000001010000000000000,
0000000001111111110011100000000000000000000000110000000000101001000000000000000011110101111111001001100100000000001101100000000000000000000000000100100100001001000110100011010000000000000000001110010111100001000000000000000011100111000000000000000010011001,
0000000011001110000000001101100101111111000000000000000001001100000000000011011100000000100000010000000001111000101100100000000001101100000000000000000001100100011111110000000000000000111011100000011100000000000110110000000000000000100010010000000001100000,
1110101100000000000000000010100100000000110111010000000011101001000000000000110100000000001101110000000000000000000100101111110100000000000101110000000011000000111111110001100100000000000000000000000000000000111001100000101100000000111011110000000000111101,
1100010101000100000000000000000000000000111111001101011100000000000000000010100100000000001000111001101100000000001111100000000000000000000010000000000010111001000101110000000000000000110111100000000000101000000000000000100100000000000000000011010111000100,
0000000001010100000000000111111100000000000000001110000101001010000000000010110100000000110011011011110000000000000000000001101000000000000000001100000010110010000000000000000011101111000011010000000011000011110010100000000000000000010000001110010100000000,
0001110100010111000000000000000000000000111100110000000000101100111011000100111100000000000000001110010000000000000011100000000000000000001000010000000010110100000000000001100100000000000001110010100011100101000000000000000000000000001010000000000000010010,
0000000011110101000000001110100100000000000100000001000100000000000000000000000000000000110011000000000000110100011111110000000000101010000000000000000000011110000011010101010100000000000000001110111100010101000000000000000001100110000000000000000000111010,
0000000010111111000000000001010000000000110001100000000011110000101010110000000000100011000000000000000000000000010101110000010000000000100100001110101100000000111101111101100100000000000000000000000011101100110001100000000011111101001011100000000000000000,
0000000000110100000000001100011011001011111010000000000000000000000000000000000011010100000000000001111100000000000110110000000000001111000000000000000000101110110011011110010100000000000000000000000000110110000000001110110111101111000000000010110000000000,
0000000000001000000000001111001100010010000000000000000000001000000000000100011111011000000000001100011100000000000000010000000000001110000000000000000000000101001010000000000000000011000000000000000000000000110100101010001111100010000000000000000011010011,
0000000000001011000000000011000100011101000110110000000000000000000000001111000100000000000000010001011100000000000010000000000000000000000000001101100100111011000000001110011011101101000000000000011000000111000000000000000011101011000000001110000100000000,
0000101000000000000000000000001100001010111001000000000000000000111001110000000011101001000000001101110100000000111111100000000011110111000000000000000011001000000000000001111100000000000110101111101011110111000000000000000011100010111110000000000000000000,
0000000011101101110111110000000000011011000000000000000011111001000000001111011000000000000101100000000000000000000110110000001000000000000010110000000011001110000111000000000000101010000000000000000000000000001000010000111000000101000000001111001000000000,
0000000000000000001010100010000100000000000000001101000111101011000000001100000001100000000000000101010100000000000000001101010100000000111011000000000000110011001101111110100100000000000000000000000000000000000111101101010111101001000000001111000000000000,
1111000000000000000111000000000011110110000000001111101100000000000000000000000011101100110101011110101100000000111011100000000011101110000011110000000000000000111010000000000011110010000000000000000000010110000000000000010000001011000000000000000000011011,
0000000000010011000000000010100001010101010000010000000000000000000000000011110100000000110000101010100100111001000000000000000000110001000000000001000100000000001010010010011100000000000000000000000011011111110101110000000000110101111000110000000000000000,
0011001111110011000000000000000010111010000000000101010100000000000000000000000010010010110000000000000000000000010111010011011000000000000000001110111100011100000000000011010000000000000100100000001000000000110111100000000001111111000000000000000001010010,
0000000010111001000000001110111000000000000000000010101100011111000000000000000010110010110010111110110100000000000000000001101000000000000000000001111100000100110010110000000000000000001001100000000011111010101110100000000000000000001000000010000100000000,
1110100000000000000111000000000000000000111000100000000000010111000110100000000000001101000000000000000000010111000000000001010100000000000000001101100000111010000000001101111011101110000000000000000000001111111111010000000011111001110111100000000000000000,
0111011011101000000000000000000000000000000000001101100000000000001011111110010000000000000000001111010100000000000000001010111100000000110010000000000000111000000011001011110000000000000000000010100100011000000000000000000000000000010100101110010000000000,
0000000000000000000010011011100100010111000000000011010000000000000000001011111000000000000001010101010100000000101011000000000000000000010010010000000000111101111011000000000000000000000000111011100000011111000000000000000000000000000000000000001001000101,
0000100000000000111110110000000000000100000000000000000000000000000100100000000011110001000000000000011000000000000001000000000000000000000001110000010100000000000000000000000000001010000100110000000000000000000001111111101111110101000000000000011000000000,
0011110010100101000000000000000001010100000000000000000011011100110000101110010000000000000000000000000000111011010010000000000000000000111010000000000000101010000000000001111110100000000000001001000111111111000000000000000000110101000000000001000000000000,
0000001100000000111111110000000000010010000000000000111100000000111100010000000000000000110111000001110111110000000000000000000011100001000111100000000000000000111100000000000000000100000000000000000000010101000000001110001100000000000000000001110100010001,
1110000111001000000000000000000000011000000000001111001100000000000000001011111010001111000000000011100100011011000000000000000000001001110100000000000000000000101100000000000000111110000000000000001100000000000000001111110100000000111000000000000011101000,
0000000000000000010010100110111111001111111111000000000000000000000000000110001011110110000000001101111100000000000000000001101100000100000000000000000010111010111011110000000000000000000101110000000000000000101110111100100000000000000000001110011111101111,
0000000000000100010101110000000000000000110001010000000000100011001000110000000000000000100101000100101000000000110010000000000000000000000000001110110101000001000000001111011011000101000000000000110000000000000000001011111100000000000111011101100000000000,
1110100000000000000000001111010100011011111010000000000000000000000000001110010100010010000000000010000111101110000000000000000000011001000000000000000000101011000000001110001000010011000000000000000011111001110110010000000000000000000111000000000011110101,
0000000011111010001011000000000000000000001000000000000000100000111000111111000000000000000000000000010100000000000000000000100000000000000000000001001101000110000000000000000010111000111111010000000000000000000110111011110000101000000000000000000000100110,
1011100111111011000000000000000000000000000010100000000011000001111110101110110100000000000000000001000000000000000000001101100000000000000001010000000001110001111101110000000000100101000000001110000000010110000000000000000000000000000000001101000111110001,
0100111011111111000000000000000000000000010110010101100100000000000000000000000011011101111011000000000011000100000000000000101100000000000000000001110001001001111110100000000011100001000000000000000000000000111010011110000100000000000000001111110001100010,
1100011100011010000000000000000011011101000000000000000000011000000110110000000000011110000000000000111100010100000000000000000000000000010000010000000011000110000111110000000011100011000000000000000000011101111011010000000010000001001011000000000000000000,
1110001100000000110011000000000000000000000101110000000000001001000000001111100111101000000000000000100100000000000000001111010011110101000000000000000000011000000000000000011000000000111010000000000000011101000000001110110111100001000000000000000011100100,
1111100100000000001101100000000000000000000000000011000000111011000000000000000011011001100000010000000000000000111010100110000100011111000000000000000000000011000011100001100100000000000000000000000000000000111000111101000011110111000000000000000001000000,
0000000000100011010000100000000001001110111111100000000000000000111000110000000000000000010100100000000000011110001101010000000000001011000000000000000000011111011101000000100100000000000000000000000000001000010000000000000000000000111001110000000000100111,
0001010000110011000000000000000000000000011000100100110100000000000101000000000001001001000000001001100000000000011011000000000000000000001101011001111100000000000000001000000111000011000000001011001000000000111110110000000011001100000000000011011000000000,
0110011001111111000000000000000011111010000000000000000001010110000000000011110000000000100000010000000011110011000000000011011010000001101111100000000000000000001000000000000010000001000000000000000000000000000101101011111100000000000000001001011000110100,
0000000011110101111000110000000000000000000000001101010000011100000000000000000010111110110001110000000000011110000000001011101100000000001110110001010100000000001100100000101100000000000000000000000000100000111000100000000000000000111100011110010100000000,
0000000010000001000000000011011000000000000010001111001100000000000000000000000001010101010001100000000000000000100000011000000110111111000000000110101100000000000000000010111000101001000000000010001100000000010110100000000000000000010110000000000011101100,
0000000010000001100000010000000000111010000000000000000011101110101000110000000001111111000000000101110000000000000000001011101100000000000000000101100111001010001111100111111100000000000000000000000000000000010000011101101100000000110101110000000011110011,
0000000010000001110000010000000000000000110110100000000011111101000000000011011100000000110011110000000000000000100000011000110111011010000000000011001100000000110110101100000100000000000000000000000010111100111011000000000011000101010011110000000000000000,
0001111010000001000000000000000001010000000000001101111100000000000000000000000010110110000100110000000001000010000000110000000000000000000000000111111100001000000000001111000000000000101111110001100100000000111110000000000000000000000000000001011101001000,
0000000011100110001000010000000000000001000101000000000000000000000000000000000011111100111111100000000000001000000000001110000000000001000000001110010100000000000000001101010011101100000000000000000000000011001000110000000000001010000000000000000000001101,
0000000000011100110100100000000000000000111101001100101000000000000000000011010000000000111101111110011100100101000000000000000000000000011111110000000011010011000000000001001011100001000000000100010100000000111000110000000011011010000000000000000011111001,
0000110000000000000100110000000000000000000000000110100100101010000000000000000011100000000101100000000011011101000000100000000000000000011111010000000001000111110101010000000000000000111101000000000000001101010101110000000000000000111111100000000001111111,
0000000001111111010111010000000001111010001010110000000000000000000000001000101001111111000000000000000000000000100000011000000101101101011101100000000000000000001001110000000000101111000000001111111000000000000000000100011110100100000000001111100000000000,
0000000000000000110110100000011100000000000100010000000011111101111111110001010000000000000000001110110000000000000000000010000000111100000000000001100100000000000000001011110100101111000000000011111000000000000000000011111100000001000000001110001000000000,
0000000010110010000000001110101000101001000000000010010000000000000100110000000010010110000000000000000000000000000001101110111000000000001100000011010000000000000000001100110100000000110111110101111100000000000000001110101000001100000000000101101000000000,
1110001110001000000000000000000001001010000000000111111100000000000000000000000010111110100000010000000001001100000000000010001111101101001001000000000000000000000000000111111100000000010111000000000000000000000010110111001001111111000000000000000001111111,
0000000010100110011000110000000001011011000000000111111100000000000000000000000010000001100000011100011000000000000000000111111100000000010011010011111100000000000000000101110100000000011011010000000000000000101101111101000001111111000000000110010000000000,
0000000011001011000000001101111100000000000000001111110100000000000000000000000110111101000000000000000000000000101010101100000100000000001100000000000011111101000101000000000000000000111111111110001111110001000000000000000000000010000000000001000100000000,
0000000000000000111010000110000100110010000000010000000000000000000000000000000010000001100000010111111101001110000000000000000000000000000101110000000001101010000000000000010000000000011111110000000010100000111001110000000001111111000000000000000001111111,
0111000000000000000000000110001000001100011010100000000000000000110110010000000001111111000000000000000001111111001100000000000000000000011111111111100000000000000000001011011010001101000000000000000000000000000100001001011111000110000000001000111000000000,
1110111000000000101111100000000011011111111010000000000000000000001011110000000000000000110111100000000011101110110010010000000000000000011000000000000011001100000000001110111100111100000000000001011100000000000000001111111011101000000000000000000011110110,
0011001000001000000000000000000000000000110011110000000011110100110000001100110000000000000000000000000011000001100100100000000010111101000000000100101000000000101110010000000010000001000000001100100100000000110111000000000001011110000000000000000001001101,
1111011000000000000111000000000011010010000000001101000000000000000000000000000001000111011111110000000000000000100101111111010000000000001110010000000011101111000000000000000011101010111001110001010000000000010010000000000010001111000000000000000011110100,
0101001101111111000000000000000011111110000000000111111100000000110100010000000000000000100100000000000011000001011001000000000011010100110111100000000000000000000000000011100000000000011111111110000010011000000000000000000000000000001110011000000100000000,
0000000011101000010011100000000011010001000000001110110000000000111011010001000100000000000000000010010111010110000000000000000000000000000000000110000010110000100110000000000010000001000000000000000000001001000000001110111011001111000000000000000011101011,
0000000010000101000000001000110000000000111110100000000011000101000000001011000001100110000000000000000010110110001100000000000010110011000000000000000000011101000000000000000011101000101100011100111100000000000001100000000000000000111011010000000010000001,
0000000010111010000000000001111100000000010000001101100100000000000000000010111000000000110011100000000000000000000001101111111100000000000000001111010100000110000000000000000000000000001100100000000000001000000000000001100100000000111101101101001100000000,
0000000001010110011011100000000011111111001010010000000000000000000000000101001100000000000111001101001000000000000000001101100000000000000000001000110100000000000000001000000110000001000000000000000011000011100011010000000000000000000000001100100111000111,
0101001100000000000000000010111100001001000000001100000100000000000000000000000011000010101011010000101000000000000000000111111111111000000000000010111100000000000000000001001011000011000000000000000010111011000000001010111001010110111101110000000000000000,
0000000011000011100100010000000010110100000000000000000000101011000000000011011000000000001000000000001000000000101101100000000010111010000000000000000011000001110011001110100000000000000000000000000010101011000000000101000011110001000000001101001000000000,
0000000010000001000000001101110100010110000000000000000011111011000000000000000010000001100110010111111100000000110010100000000000000000000000001110111001101001100000010000000010110010000000000000000010110011000000000010011000000000101010010000000010000001,
1101011111111010000000000000000011011100000000000000000000111001110111000000000000101101000000000000000000100001001000000000000000000000000000000101110111110110010101100011010000000000000000001101100000000000001010010000000011111100000000000000000000110000,
0000000010111001000000001101101001111111000000000000000001111010110001100000000000000000110001100000000001111111100000010000000001111111011111110000000000000000011111111011000000000000000000000000000011010101000000010000000000000000000000000010101101111111,
;