0001001011000010000000000000000000000000000000001011100010010111000000001011101111111001000000000110011100000000000000001110111000000000110101010000000001011001011001010000000000000000101001011000000100011000000000000000000011101011000000000101000100000000
1011100100010111000000000000000000000000100000011111110000000000000000000000000010000001111101110110110011101101000000000000000000000000000000000111111100010100000000000000000011001000111001110011010000000000010111000000000000000000001000110001010000000000
0010101000000000100000100000000000000000100010100000000010000001000000001001001100000000011111110111111100000000000000001000000100000000001010010111111100000000000000000111101000000000100000010000000000110011011101100000000000000000011001110000000011101101
0000000001010001000000001100111000010101000000000100001100000000000100110000000011101010000000000000000000011100010100010000000000000000111100010000000000111101011000000000000000000000000000010011001000100111000000000000000000000000110010110010001100000000
0000000010000001101000000000000011101111000000000010001000000000000000000000000011010101001111000111111100000000000000001000011100000000000000000010110101010011000000000101000000000000101100010011110000110101000000000000000000000000000001000000000010100111
0000000000011000000000000000011011110110000000001101011000000000000000000010010100000000000011100000000000111100110111100000000000000000000000001011010111110011010001101000000100000000000000001011001100000000101101100000000010000001000000000011011100000000
0000000011110111000000001001100001111111000000000111111100000000000000000000000000010110100000011101000000000000000000000000011100000000000000000111111101111001010010010111001000000000000000001111001101000110000000000000000001111111000000000000000001100010
1100010000000000000000001110101110100011100000010000000000000000000000000000000010011101011111110000000010000001000000001000000100010101110010000000000000000000101110100101111100000000000000000000000000111110010100100000000000110100000000000000000011010000
1011101000000000101010000000000000000000000000000011001111000011000000001010000100000000011000110111010111100011000000000000000000000000110000010000000001111111000000000001010100000000110011110000000001000110000000000000000001011100000000000000000000110010
0000000000000000111001001010011001100111000000000010100100000000000011001110000100000000000000000011001111011011000000000000000001111010011111110000000000000000000000000000000011000011111100100000000000110010000000001101101000000000000000000011001001001010
0000000000000000101101011100100010101011000000000110111000000000000000000000000011001001010101000000000011010110000000001100010001010110100000010000000000000000111001101010011000000000000000000000000000000000100000011111100100000000000000000100110101100011
0000000000000000011100100111111110000001000000001000100100000000000000000111111101111000000000001000000100000000010001110000000010000001000000000000000010001100000000000000000010011100000010110000000010011110000000000000000100000000000000001000001110000001
0000000000101010000000001101010000000000100000011111010000000000001110101011111100000000000000000111111110000110000000000000000000000000000000000001101111111001000000000110100100000000101100000000000001000101000000000000010100011110000000000000000000110101
0000000000000000101001110000111101000101000000000100111000000000100011110000000000000000110100010000000000000000100000011101100111010100000000000011111100000000000000000000000011110110111001110000000000000000100000011111000100000000000011000111111100000000
0111111111000000000000000000000001111111000000000000000010000001000000000000000010000001100100110111111100000000000000001001011001111111000000000000000001001110011111110111111100000000000000000000000010101100101100110000000001111111000000000000000001111111
0000000010000010000000000100000100100100000000001000000100000000000000000000000001111111011111110000000000100011101010010000000000110011101010110000000000000000010100110000000000000000000010110001110100000000001100010000000000000000000000001000000100010011
0000000010000001100000010000000010000001011111110000000000000000000000000000000000001101110100000111110100000000000000001000011100000000000010011000110100000000101100110000000000111111000000000000000011101000000000000010110001111111000000000000000000010001
0000000010101111000000001101001000111011000000000000000011101110000000001101110110011110000000000111111100000000101001100000000000110000000000000000000001101000000000000000000000111110110010010000000000010111001101100000000000000000000000000010111100110010
0000000011011101000000000000010100000000000000001011100011011001110101100000000001111111000000000000000011110101100000010000000000000000000000001101111110110001000000000000000011011010111110100000000000000000000100100000000011010011000000001110101000000000
0000000011010100000000001011100100000000100000010000000000000011000000001100110000000000011001100011010010111111000000000000000011111100011111110000000000000000101101000000000000000000110100110000000001101010000000000000111000000000000011100011101100000000
0000000000000000011101100111111110000001000000001000000100000000000000000111111100000000011111111010100100000000000000001101000010000001110100110000000000000000000000000101001000000000011101100000000010000001100000010000000000000000000000001000000110000001
1111001100000000000000001101110101111010010011010000000000000000000000001101110000000000110001010000000000110100001100100000000000000010000000000001111100000000000000000000000010110011110110110000000000000000011100010110011000000000000000000100111011110010
0000000011101010000000000101000110001111000000001011001000000000000000000000000001011101011111110000000010000001000000001000000110000001100000010000000000000000100000010000000011001001000000001011000000000000000000000110111000000000011010101000101100000000
0010010100000000001001110000000000000000000000001000011100011111000000000000000010000001101010000000000000000000000011010111111100000000111000110111111100000000011111110000000000000000100000010000111100000000010010110000000001111111101010000000000000000000
1100011100000000000000001010000101110000000000000111011100000000111100011000000100000000000000000000000000000000100000011000000100110111011111110000000000000000000000000000000001111111101010100001001100000000111111110000000000000000000000000110010101011111
0000000001001001000000001111001100000000000000000111111000100010000000000000000001111111001110111000000100000000000000000000111101101110000000000000000001011000000000001000000100000000111010001101010000000000000000001100111100011001110001010000000000000000
0000000010010111000000001011101100000000100110000000000000000010000111000000000000000000010111010000000000000000101101010000110100011111000000000011001000000000000000000011011000101101000000000111111101100011000000000000000000000000111101110000000011111110
0000000000000000101101011010111001111111000000000101010000000000000000001101100111000001000000001111111100111110000000000000000001111111000000000000000001111111000000000000000000011011110110000000000000000000010010010111111100100001000000000110011000000000
0000000000000000100000011000000101111111000000000101000100000000000000001010110001111101000000000111111100000000000000001000000110000001100000010000000000000000000000000111111100000000101101110000000000011010000000000000101001111111000000000111111100000000
0001100100000000000000001110111111111100000000001011111000000000101111100000000000000000010010000111111000000000000000000001000000000000000000000111111100010001000000000000000001111111111011000000000011110111011100100000000000100010000000001111110000000000
1000000110010100000000000000000000010101000111000000000000000000111000000000000001111100000000000000000000000000101101011000000111000011101001110000000000000000110111010000000000000000110001001100101000011100000000000000000000100110000000000000000010101101
0011001100000000010101110000000010101011000000000000000010000001000000000110011001111111000000000000000000000000101010101100101010000001000011000000000000000000111111110111111100000000000000001100001110000100000000000000000000000000000000001101110110101100
0000000011011111110100110000000010111100011111110000000000000000000000000000000000111110011111110100000100000000000000001110110110000001101000010000000000000000001001110000000000000000101000110000000000000000010010000001101011000101000000000000000011111000
0000000001011111000000001110110000111110100010000000000000000000000000001110011100000000110111110000000011110011000000001000000111100011000000000000000000001111000001100000000000000000110101010000000000011000000101000000000000111101000000000000000011000110
0000000011011010100111110000000000000000001100110000000010110001000000001110010101011001000000000101010100000000000000001010111100000000000100010111111100000000000000000101001100000000110010101010010000000000000000000011110000111010000000000001001100000000
1100011000000000101100100000000011111001001111110000000000000000000000000000000000000111100110110000000000100100010010010000000000000000000000001111101100100010001101110000000000000000111010110000000000010100000000000010100111010001000000000000101000000000
0000000010000001100111100000000000000000001101011110011000000000000000001110010100000000011111110000000000000000000010001000000100000000000000000001001011001000000010100000000000000000111011010000000000010001000000001111010100000000001100110000000010111111
0000000011111001000000000000100100000000000000000001001111110010101100110000000000000000000111010001101100111110000000000000000000000000101011001001111000000000010110011000000100000000000000000000000010111101000000000001001110100100000000000000000010001110
0000000001011001100000010000000000000000000000000001001111101011110101000000110000000000000000001100010000000000000000001000000100000000000000000101000010000001001000100000000000010001000000001110100000000000101100000000000010100000000000000000000010000001
1000000101010101000000000000000000000000000000001011101101111110011100110000000000111011000000000000000011011101100000010000000000000000001001000000000010000001000000001100001100010001000000000100110101100101000000000000000010000001000000000001001100000000
0000000000000000101101011111101000000000000111100000000011000101000011000000000000000000101110010101000100000000000000000000101101000000000000000000000001100100111100100011010100000000000000000000000000010100000000001110010001111001000000000000000001011010
0000000000000000000100000011101100010010000000001001011100000000000000000000000000010011000111010000000000000000100000011011100000000000010100000000000010010011000000000100000100000000111111100001000011111011000000000000000011001001000000000000000010100111
0000000001111111000000000111101100000000000000000101000000100010000000000100101100000000011010001001000000000000000000000110010100000000000000001000000110000001100101000000000000000000001010101011111000000000000000001000000100000000000000001100011000111001
0000000001101111000000000111010010000001000000001000011100000000001011010110000000000000000000001000000110000001000000000000000010000001000000000000000010001101000000001101100000000000001000010000000011001010010010100000000000000000000000001000001010001110
0000000000100001000000001010000010100010000000000000000011001100000000000000000010010111011111110111000110000001000000000000000010001111000000001111111000000000101101110000000000000000100000010000000001000001000001100000000000000000010000100000000010110101
0000000000000000111000011111001000011110000000000111111100000000000000001110010100000000100000010000000000000000000000000100110100000000000000000000111100000000000000000100010110000001000000000000000000010111000000000101111000000000000000000111111111010101
0000000000001111011111110000000001111111000000000000000011101011000000000000000010000001011010000000000011110111000000000000001101111111000000000000000001100101011110010100101100000000000000000011011111000010000000000000000001111111000000000000000001111111
0000000000000000011111110000000011111001000000001001000000000000000000000011101001011110000000000000000000000000000000001100111100000000100101011000000100000000001101110000000000000000111111110000000000000000011001100010010100000000101101101000000100000000
0000000010000001000000000001110010000001000000001000000100000000101010100000000000000000011111110000000010000001000000001000000110000001100100100000000000000000101001010000000011101000000000000000000010111010000000001111100000000000010011101001110100000000
0000000011100111000000001110001000011000000000000000000000000000000000001101001000000000111101000101011000000000000000001111010100001000000000000000000001010101000000001110011100000000110101011111010000000000000000000010011100000000111001100011000000000000
1010110100000000111100000000000000000000000000001100000111001111000000000001000000000000111101110011011100000000000000000100011100000000100000010000000010010010000000000110110100000000111010111111001000000100000000000000000000000000000000001101010100001111
1100101100000000000000001110010100000000110011100000000011011010000000001101011101100101000000000000011111000011000000000000000000000000000000000001111111100100101100101100101000000000000000001111000100000000110010110000000011010111001001100000000000000000
0000000000000000011111110111111100000000011111111000000100000000000000000111111100000000011111111101000000000000000000001111000110000001101100100000000000000000000000000101100100000000011111110000000010000001101000000000000011001111000000001000000100000000
1111011100101000000000000000000011111010000000001111001000000000000000000000010100000000000010010000000011101100000000001100100110010101000000000000000000001110111000100000000000000000001000110010001111001011000000000000000000000000000000001101000111110100
0000000011111111100100000000000001000010000000001000000100000000000000000001000000000000011111110000000010000001010100000000000010000001000000000010000000000000100101000000000000000000011100100000000000000000011111110111111100000000000010111000000100000000
1011000000011011000000000000000001111111000000000000000000111111110010110000000000000000100000010000000000000000000111100111001100010010100000010000000000000000000000000111111100000000110001110010010000000000000000000000100101100000000000001111111100000000
0000000000101110000000000100000010000001000000001100001100000000000000000000000010000001010110100000000000000000100000011000010010000101110110110000000000000000100000010000000011101111000000000100001000000000000000001110001000000000011111110000000011001101
0000000010001100000000001100000000000000011001000000000011000101000000001010001100000000011100010001101100000000000000001100110000000000000000000010001000110000000000000000000001111111101000011110110100000100000000000000000001101101000000000011010100000000
0000000010111101001011010000000000000000010101100001110000000000001110001110101000000000000000000000000000000000010111100010010100000000100011110000000000010101000000000001000011011100000000000000000000000000000100101111110101010101101100010000000000000000
0000000000000000110101001010001000101110000000000111111100000000000000001011100000000000000001000000000000000000011010000010101101100011000000000000000001111111000000001010011000000000110011000000000001110001000000000111111100000000000000000111111110001011
0000000000010111100111100000000001111010000000000001110000000000000000000000001001111111000000000000000000011001000000001101101000000000100000010000000010011100010101010111111100000000000000001101010100011000000000000000000000000000111101000001110100000000
0011010000000000000000001111010110101111010011110000000000000000000000001111110000000000010100010110111011001000000000000000000010011111000000000000000000011011110101011011100000000000000000000011000111011101000000000000000000100111111010000000000000000000
0000000011011000001001100000000000000000000000001101111111001110101011100000000010111111000000000000000000000000100011011000000100000000100000011000110000000000100000010000000011100010000000001110101111010110000000000000000011001110000000000000000010011110
0000000000000000011011100110100100000000000000001010100110000001000000000110011100000000110000010000000000000000000011101100110110000001100000010000000000000000000000000111111100000000011011011000000110000001000000000000000001111111000000001000011000000000
1110001100000000000000000010110011100111000000001001111100000000000000000000000001111111111101011100111100000000000000001100111111011000000000000000000010000001000000000001111100000000001000000001111111100011000000000000000010100111000000001010101100000000
1101011000000000000000000111111100000000010011001001010100000000000000000111111100010011000000001101000000001111000000000000000010101010000000000000000010011001111001000000000000000000011111110001111010010101000000000000000010111100000000001000000100000000
0000000000110001000000001011100000000000100000110000000011100111000000001001010100000000010010010111111111101000000000000000000001101110000000000000000001111111000000001001000100000000101101110000000000100111001110000000000000000000001001000000000000011000
0000000000000000000101101101101000000000110010001101100000000000000000001100100010000001000000000000000010111100000000001101101011010011000000000000000001010011000000000000000000111000110000010000000000010110000000000000001111011111000000000000000000100111
0000000000011110000000000111111110000001000000001010001100000000000000000111111111001111000000000000000000000000010010111111110010000001000000000000000010010101100111000000000000000000011111110000000010000001000000001110000100000010000000001000000100000000
0000000000000000001110101011001100110001000000000001111000000000000000001010111000000000101111110111111100001111000000000000000000000000000000000001001001111111000000001011010100000000110111010000000000011010110011010000000000000000000000000110001000011011
1111011000000000011111110000000000000000011111111110010100000000110111000000000001111111000000000000000000011101000000000011111100000000100000010000000010000001000000001001100010000001000000000000000000000000100000101100100100000000010110111000000100000000
1110011000000000011001010000000000000000111001001100101100000000000000000100111000000000100000010000000000000000000000000111111100000000000000000001000100101110000000001111110100000000011001100000000011110010000000001101110100001001000000001111000100000000
0000000000000000100001111001011000000000110000100010111100000000000000001000000100000000001101000111111111100110000000000000000000000000001111110000000001101110000000001110100000000000100000010000000000010101010011100000000001001100000000000111111100000000
0101101000000000000000001101110001111001000000000100011000000000000110110000000010000001000000000000000000011101000000000010110001101111000000000000000001111111001100111101000100000000000000000000000000000000000010001100001000000000110000100110100000000000
1010110100000000101111100000000000000000000000000011000000101011000001100000000010000010000000000000000001111111000000000010101000000000001011100000000011110110000000001000110100000000100110101111100100000000000000001010101100000000000000000110001011101010
0001001100000000000000000001100100000000000000001111111011110001000000000001011100000000000000100000000001101010000000000100011000100011100111000000000000000000000000110001110100000000000000000000000011011111110000100000000000101000101011100000000000000000
0000000000000000011111110111111100000000011111111000000100000000000000000111111100000000011111111111110100000000101111110000000010001011000000001000000100000000000000000000000010101110011111110000000010000001000000001101101000000000000000001000000111001100
0000000000011111000000001100101100000000110010110000111000000000000000000000000010000001111110000101011100000000000000000000000000001110000000000000000001000001000000001101010010000001000000000000111000000000000000001101001100000000000000000111001000000000
0000000000110111000000001001010100101001000000001011100100000000000000000000000010000001010111100000000011110111000000000010001101111100000000000000000001010101000000001000000100000000000110000011111011110011000000000000000000000000110100110000000001111111
1100011010000100000000000000000010111010000000000000000010000100000000000000000011001111011100110111111110000001000000000000000000000000100000010000000001111111101010011111011100000000000000000000000000000000000010010011010100000000101010100000000011010100
0000000000000101000100010000000001111111000000000111100000000000000000000000000010000001100000010000000001111111000000000111111101111111000000000000000001110101011111110000000000000011000000000000000011100100000000001000000100000000000000000111111100000000
0000000000000000110011111001111000000000110111110000000011111111001000111001111100000000000000000101001100000000000000000001010000110000000000000011001000000000000000001100100100000000110001100000000001000000000000000011010100010001000000000101111100000000
0000000000111000101110010000000011100110001010100000000000000000000000001001110000000000000111110000000010111010000000000010001100000000110000010000000000100111111000111001101100000000000000000000111100110010000000000000000000000000000000000010111110111000
0000000000000000100000011000000100000000100111100010100000000000000000001000000100000000011111110000000011000100000000001010011000000000000000000111111101101100000000000000000001111011100000010000000001110100000000000100100000000000000000000100101100101111
0000000000000000011111110111111100000000011111111010010000000000000000000111111100000000000110000000000001001010000000000111110000000000101010011000000100000000000000000000000001000011011111110000000010000001000000000000001110011000000000001000000100000000
0000000000000000110111001101010111110111000000001111101000000000000000001000111100000000000111100111111111011011000000000000000011110010000000000000000001111001000000000000000010101011101011100000000000100011010011010000000001010101000000000011100100000000
0000000010111001000000000100001001111111000000000000000000000000000000000111111100000000100000010000000001111111100011110000000000110011000000000000000011000110011111110111111100000000000000000000000011100010111100110000000000000000110000000000000000010000
0000000011111100000000000001011111001101000000000100011000000000000100111110101100000000000000000000000011110011011000010000000011001111000000000001011100000000000000000100110011010011000000000000000011011011001011010000000000000000000000000111111111011000
0000000000000000011010010101100000000000000000001111001011000110000000000000000001000011110111110000000011110001000000001011101100000000000000001011100110000100000000000000000010001000001010011000000100000000101011110000000000000000000000001010000011000011
0011011000000000000000000100010111111110000000001001111100000000000000000110100000000000100110101000000100000000000111100000000000000000100001110000000010000001010111010111111100000000000000001011010100000000000000001000000100000000000000001111110111110000
0000000000000000100101111000000100000000100000010100010000000000000000001000000100000000010011110111111110110000000000000000000000011111000000000111111100000000000000000000110100000000100000010000000001110000010010110000000000111100000000000111111100000000
0000000011111011000000001100011001000101000000000011010100000000000000000000000010000001000001110000000011101111110000010000000000110000000000000000000001111111000000001101101000000000110011010101111100000000001011100000000000000000000000000100101111111101
1011001010000001000000000000000010000001000000001010101000000000000000000000000010000111011111110000000010000001100000010000000010101010000000000000000000010000100000010011001100000000000000000000000000000000011100110111111100001010000000000000000010011011
0000000000000000010101000001110011110001000000001010011100000000110011100010101000000000000000000000000001000001000000000001000100101011000000000000000010010110000000001111101000000000000110100000000011101111000011100000000011110100000000001010000100000000
0000000011001101000000001011000111010001000000000000000010110000000000001001111010000001000000000111111110101001000000000000000000000000000100100000000001111111100000101011101000000000000000000110011000000000000000000011001001101100000000000011001100000000
0000000000000000100000111010100000000000101101000000000011010001001101111100011000000000000000000000000010111001000000001001001100000000110110100000000001100000000000000000000001000001101000010000000001001110001100000000000000000001000000000011001100000000
0000000010110001000000001100000000000000001101110000000010001101000000001001001011001110000000000111111111001011000000000000000000000000001101010000000001111111000000000000000010000001101011100000000000101100000000000111111111110011000000000000000000101110
0000000000000111110011000000000001101010000000000000000000000000000000000000000011001000110111110010011100000000000000001001011000000000111110010111110000000000000000000011110000000000111010000001101000000000000000001110101000000000001100000000000011111101
0000000000110011101011010000000011001010000000001110110100000000000000001101001000000000011111110110111000000000000000001100011000000000001111100111111100000000000000000011000100000000110001011100000111110100000000000000000000000000000000000001100011101100
0000000001000101000000000000010111111110000000000010001000000000000010011111011100000000000000000000000000011111000000000000011000000000000000001110101100001100011000010000000000000000111111000000010011100111000000000000000000000000111010000001100000000000
1111110010000001000000000000000010101111000000001110011000000000000000001110110000000000010111000111111100000000000000001010001110011011000000000000111000000000001100010000000000000000111101110000000011111111000000001110000000000000001011100000000010001010
0000000001001000000000001101110100100101001101000000000000000000000000001101101100000000111100100000000001000010000000000101010101000000000000001100010000000000010110000000000000000000110011010000000000000000101011101111100100000000000010100011101100000000
0000000000000001000000001101101001111111000000000110001100000000000000000000000011111001100000010000000000000000010001100101100000000000011101110000000001101110000000000000000000101101000010000000000000111111000000000100010101111111000000000000000001111111
0010010000111000000000000000000000001011000000001111110100000000000000000000000001111111001110100000000011111100000000001000000100000000100000010001010000000000000000001110001011011011000000000000000010111010000000001000000100000000011111000000000010111001
1110101000000000101010010000000000000000000001000000000011100101000111010000000000011000000000000000000011101101000000001101011000000000110010100000000000111110000000001110100100000000111100110001100100000000000000000000000000000000101110010000000000101011
0000000000000000101101111000000101111111000000000110111100000000000000001010001111010101000000001111110000000000000000001100000101111111011111110000000000000000000000000000000010111110101111110000000001011011000000000000100111101111000000000111111100000000
0000000000000100000000000001110011000101000000001011110000000000101010100000000001111111000000000000110000000000110000100000000010000001000000001001000000000000110011100000000000000000000111100000000010010010000000001001100010100101011010000000000000000000
0000000011111000000000000011001100000000011111111101010000000000000000000000000001111111111011110000000001000000111111110000000000000000110011010000000011110011001111010000000000110111000000000101010010111010000000000000000010111100000000000000000011100100
1101001111100101000000000000000011110010000000001101001000000000000000001110010111000000000000000001110111111000000000000000000011100001000000000000000001000111001111111110011100000000000000001001100000100101000000000000000000000000000000000010011000000110
0000000001101110000000001011110100000000000000000101001001111111110111010000000010000001000000001000011100000000111001110000000000000000111001100000000001111111000000001000000100000000001011110000000000000000110111000100011100000000000000000111011100000011
0000000010001000011100110000000001111111000000000111111000000000000000000111111100000000100000010000101101011000000000000000000001101010000000000000000001001100011111110111100000000000000000000111111000000000101000110000000001111111000000000000000001111111
0000000011101101011111000000000000111000000000001000000100000000101001110000000000000000011111110000000000001101100110010000000000000000100101101000001100000000000000000000000010000001000100011110100000000000111011010000000011111100000000001000000100000000
0000000010000001000000001111000000000000011111111001001100000000000000001110100001111111000000000100110110000001000000000000000000000000000110001001111100000000101110100111111100000000000000001110110011010010000000000000000011110000000000000000000011010011
0000000000000000101011001101110001000001000000000000000011111111000000001100001010001101000000000111101100000000000000000001011000000000000000000110011101111100011100111111011100000000000000000000000000101010001001010000000000000011000000000000000000010100
0000000001111111100111110000000001000110000000000000000011010100101100111100110000000000000000000000000011101001100000010000000000000000100000010001111100000000000000000001000000000000101110000000000000000000000010010010001000000000111101000001011100000000
0000000000010010000000001110110000000000111010010000000000010110000000001110100100000000000000110001110100000000000000001101100011101111000000000000000011111101000000000000000000001011111110000010111100011010000000000000000000000100000000001111101100000000
0000000000000000111100010110110000000000011111011000111100000000000000000100011100000000011011100011110000000000000000000010100110000001110010110000000000000000000000000111111100000000010101100000000011001001000110000000000000000000000000001011001011000111
0000000001111111110001000000000001111111010011010000000000000000000000000000000011101010110011110000000000000000001100100100011100000000001010010000000001110011000110100000000000000000110010110000000001010010000000000111111100000000000000000010001111110100
0000000000111111000000000111111110000001000000001000000100000000000000000000000001111111011111110000000010000001000000001000000110000001111001100000000000000000100000010000000011110111000000000001011100000000000000000111111100000000011111111000000100000000
0101011100000000000100000000000001111111000000000000000001111111101111110101101000000000000000000000000000000000001100000111111100000000001110000000000001011010000000000111111100000000000100100000001010000001000000000000000001111111100100000000000000000000
0000000011100110000000001010011101010010000000000111011000000000000000001010010010000001000000000000000000000000100000011011001100000000011111110000000001011010000000000000000001111001110100100101110101000010000000000000000000000000000000000110111001110100
0000000000110110000000000011000000000000000000000011011111001000000000000000000001111111000110111111000100000000011111110000000000100000000000000000000000011101011010001001101000000000000000000000000000000000110010100001011100111000101101110000000000000000
0000000000011100111010110000000000110111000000000000111100000000010000000000000000000000111011010000000011110110000001100000000000110000000000000000000001001100000000000000110100000000111001100001101000000000000100110000000000011011000000000001011000000000
0000000011010010000000000000010000000000011111111111000000000000111010010011011000000000000000001101011100000000001001110000000000000000111010000000000000001011110011111000000100000000000000000000000000000000111000100111111100000000000100010000000010000001
0000000000000000101100011001010100111110000000000111000100000000000000001101010110001001000000000000000010100111000000001100001100000000010010000000000001111111001010100000000000000000111111000111111100000111000000000000000000111010000000000111111100000000
0010010000000000000000001111100011111110000000001011101100000000000000001110000001111100000000000111010100000000111101000000000000000000000000000111101100001110010011000000000000000000111011100000000011100111010011010000000011111100000000000000000001111111
0000000000001110001010110000000011101011000000000000000010000001000000001100101101111111000000000000000000000000100110111000000100000000100000011010011000000000000000000111111100000000110011100000000000000010000000000010111100000000001001000000000011000101
0000000000000000010100010111011010100011000000000000000010101110101100110110000000000000000000000100111011101111000000000000000010000111101011110000000000000000000000000000000001111111001111111100101010000001000000000000000000000000011110011011001100000000
