memory_initialization_radix=2;
memory_initialization_vector=
11101011,
11010010,
11101001,
00000100,
00010010,
10101101,
11100111,
11110111,
11110100,
11011010,
11010111,
11111010,
01001011,
10011101,
10011111,
11101110,
11111110,
10111010,
00001000,
00010010,
00001011,
00000111,
11001011,
10101100,
11000001,
11100001,
00101000,
11101101,
00011010,
11110100,
00001011,
11100010,
11010010,
10110101,
00000010,
11100110,
11011111,
11010000,
10111101,
01111111,
11011100,
00111001,
01000110,
01000001,
11110110,
00011100,
11001100,
11011100,
00000011,
10011100,
01001000,
11011001,
00001001,
11001000,
00100101,
00100010,
00011100,
00111111,
00100100,
00010010,
00100001,
11011100,
11110011,
11111010,
11011101,
11110001,
11111100,
11111011,
11101100,
00010010,
00000001,
00010011,
00001000,
11100111,
00000110,
00010101,
11110110,
11110111,
11010110,
00000100,
11111000,
11110111,
00011001,
00001101,
00010000,
00000001,
00001111,
00001100,
11101010,
11111100,
00010100,
11111001,
11100010,
11011111,
11111101,
11111100,
11100110,
11100010,
11011000,
11111010,
11110101,
10111010,
11011001,
11011010,
11011010,
11110110,
11110001,
11110101,
00001100,
11000001,
10100101,
11110000,
00001100,
10111001,
11001110,
00001011,
11001110,
11111001,
11110011,
11001101,
11010011,
11000011,
11111000,
11001010,
00001111,
11101111,
11111100,
11011110,
;