memory_initialization_radix=2;
memory_initialization_vector=
1110100011110000000101110010010011101001001010101110011100000000000111000000000111111100000001111110101100010001001010010001000000000101001000000001000100001111000001010000101111111011000000011111011011110111000111010001101011111000111100010000111100010011,
;