10110010
00100001
10111100
00101001
00000111
11010101
00010011
11110110
11101010
01010000
11101111
00111011
00101110
00011010
11111010
01000100
11111011
00001000
11001110
00111101
11000100
00011000
11000110
11111110
11001011
00001001
11001110
10101110
00001010
00001110
00000111
11111100
00010001
01000001
00011110
00101101
00011000
10111101
00001111
00010011
00001010
00111000
11100011
11110100
00001001
00101010
00010001
00001011
00101000
11110011
11000011
00110101
00000011
00001100
10111110
00100011
00000010
11101110
11011101
00000110
11100011
00111101
00000100
00010000
00011001
11111011
00000100
00000100
00010111
00001001
00001101
00010000
00000110
00001111
00001001
11111010
11110001
00011100
00010011
00011011
00000000
00010001
00000000
11111101
00001011
00010010
11011101
00001110
11111111
11101001
11111001
11111111
00000100
00000111
11110100
00000011
10101111
00000001
11011101
00101101
11100111
11010100
00010011
11110010
00000110
01001010
00001101
00111111
00110001
00010011
00011100
01000010
00011000
11101111
11000000
00100000
11011111
00001000
10111100
00011000
10111001
00001000
11101001
10100100
00010001
00011011
11111000
11011010
