memory_initialization_radix=2;
memory_initialization_vector=
10111111,
00010011,
11001000,
00110011,
11111011,
11010001,
00000101,
11101110,
11101000,
00110101,
00001110,
00100100,
00001001,
00100001,
11110101,
00011000,
00011110,
11110111,
11100001,
01000101,
11111010,
11111100,
10101011,
11111011,
10110111,
00100010,
11100001,
10101110,
11111001,
11011011,
11110000,
00000111,
11111011,
00100001,
11110010,
00011101,
00101011,
10111011,
11111110,
11111111,
11101011,
00100110,
00001110,
00000111,
11110100,
00011011,
00011100,
00001001,
00100001,
11100101,
11011101,
00100000,
11111111,
00010100,
11001100,
00010010,
11100111,
00010000,
11011111,
11001001,
11101100,
00000010,
11111100,
00011001,
11111101,
00010100,
11111001,
00001000,
00000000,
11111000,
11111110,
00010000,
11110110,
00001011,
11110100,
11011101,
11110110,
00000010,
11111111,
00010110,
11110110,
11101100,
00001010,
11110010,
11111111,
00000101,
00000111,
00001101,
11111101,
00000100,
11110000,
11110000,
00001110,
11111010,
00001100,
00001110,
10110111,
00010001,
11011011,
00111010,
11100101,
11001001,
00000110,
11001110,
11101000,
00100001,
00001101,
01000111,
00100010,
00000010,
00000110,
00010111,
00001010,
11101100,
11001111,
00100011,
11110011,
11111101,
10110110,
00010101,
10100101,
00010111,
00000001,
11000011,
11111011,
11011010,
11111110,
00000101,
;