0111001111100011000000000000000000000000000000000011110111101101000000000000000011111111100000010001100000000000101010000000000010000001000000001100100100000000000000000000000010000001011111111100001000000000000000000010111100000000011111100000000001000011
0111100100000000000000000000101000000000101100110000000001011111111010000000000000000000100100100000000010100000000000001111011011110111111011100000000000000000101111100000000000000000100000010000000000111001111010010000000011101011000000000000000000101011
0000110000000000000000001111000010000001100000010000000000000000011111110000000011101100000000000000000000000000101111011011101100000000000000000010010101111111100000010000000011010000000000000000000011001101010111010000000001100110000000000000000000110101
0000000011001111000000001110100000000000111011111100000100000000000000000001011100000000110000110000000010000001000000000010100001110000000000000000000000110011000000000001100100001010000000001011100111011011000000000000000001000100000000001011110000000000
0000000000000000110011110111111100000000000000001000000101011011000000001000000100000000110000100000000000000000101010010111111110110110000000000000000011111101110000000000000000110110000000001000000100000000000000000000000001110011000000000000000001111111
0000000000011011000000001110100101111111000000000110101000000000100110000000000000000000100000010000000010111100000000000000101000000000000000000101101010000001000000001001100000000000000101100111111100000000000000001000100111111000000000001000000100000000
0000000000000000100101100111111100000000000001111000000100000000000000000100000101111111000000000000000000000000000000000001001000000000011111110000000001111111100111000000000000000000100000011000000100000000000000001111110101111111000000001001011100000000
0000000011001011000000000001110100000000111011001110000100000000001000000000000010000001000000000000000010000001000000000011001010000001000000001000000100000000100000010000000000000000011111110111111100000000000000001011111000000000000000000111111101111111
0101001100000000111101110000000000011001101000110000000000000000111100010000000011111111000000000000000010000001000000001111010100011111111100000000000000000000111011100000000010001111000000001010111111100111000000000000000000010011111111110000000000000000
1011110100000000000000000000101100000000110011010000000001100001000000000000000010011111111101111101011000000000000101110000000011111101000000000000000011110110010101110000000000000000110011010000000000001000010000110000000011101000000000000101011100000000
0010110110000001000000000000000000000000000100000000000000100100000000000010011100000000100000011000000100000000111001100000000000100101000000001101100100000000000000001010011000000000001001000000000000001101011011010000000010001111011111110000000000000000
0000000000110101000000001101101000000000101110100001001000000000101101011001111100000000000000000010000110000001000000000000000000000000000000001101011110000001011111111000000100000000000000000111111100000000101010100000000000000000000000001101001010000001
0000000000000000010010010111111100000000000000001000000101111111000000001000000100000000100110010000000000000000011111110111101100000000000000000001111000111101010011000000000001111111000000000000000001001101001110100000000000000000100000111000101000000000
0100011000000000111010010000000010100000000000000000000001111000000000000000000001111111100010001110100100101011000000000000000000110010000000000000000011110110100000010000000000000000101111110001100101010100000000000000000000000000000000001011001111101010
1010110100000000000101110000000011111000000000001001010000000000000000000000000001111111100000010000000000000000011111111000000100000000000101000000000100000000100000010010010100000000000000001000000110010110000000000000000001110010011111110000000000000000
0000000011010101100000010000000010100101111101010000000000000000101001110000000010100110000000000000000000000000101010000010101100000000000000001100010110110101000000001011001001010111000000000000000000000000111001101010110001001001000000000000000000101001
0111111100000000100000010000000000000000000000001000000101001010000000001011011000000000101110010000000000000000011111110111111110000001000000000000000001001111000001010100110000000000000000001000000100000000000101110000000000000000000000000111111101111111
0000000000000000111001001010101000101000000000000111010100000000110000010000000000000000101010000000101000010101000000000000000000000000000000001011000110110101000000000000000011001011110110110110100000000000110100110000000000101010000000001000110000000000
0111011000000000100011110000000000000000100000011000000100000000000000001101100001000101000000000010111010000001000000000000000010010101000000000000000001110100110010000111111100000000000000001000000110000001000000000000000001111111000000001111010100000000
0000000000000000110001000100111011101010000000001000000100000000000000000000000000111110101111010000000010010100000000000111111111111000000000000000000001000010110001000111111100000000000000001001010000000000000111110000000001111111111010000000000000000000
0111111100000000111011100000000011111111000000001000000100000000000000001000000100000000110010010000000000000000100000010111111100000000111000100000000000010001000000000000010100101011000000000000000011110001110001000000000000000000000000001000000110111010
1001110000000000011100100000000000000000000000000010101100000101000000000000000000101010111101100000000001011001000000000001101000001111000000001111101000000000000011000000000001111111000000000111111100000000001000100000000000000000111010010110010000000000
0101111000000000001000010000000000000000000000000101110000111011000000000000000011000001100101000000000000101001111000000000000010000001000000000110100000000000000000000101101110000001000000000000000001000001010111000000000001101101000000000000000001111111
1101101000100011000000000000000000000000000000000110101101010110110001100000000000000000101100100000000000000000110001101000000100001111000000000000000011101011100000010000000000000000101011101100100001111111000000000000000011110111000001110000000000000000
0000000010000001001101000000000000000000001110010100011000000000000000000110110100000000100010010000000000000000000010111000110100000000010010011000111000000000000000001101010000000000000011001000000100000000011111110000000000000000000000000010111010110111
0000001100000000000000000001001000011010111111100000000000000000000000000011101111001110000000000000000001111111000000010000000011111111000000001111111100000000101010000000000001111110000000000100101100000000000000000101000000110100000000000000011000000000
0100110000000000111101010000000000000000000000001000000111100100000000001000000100000000110111000000000000000000110001100111111100001010001011010000000000000000001010110000000000000000100000011011001000000000001110100000000000001011100000010000000000000000
0000000010000001000000001000110000000000110011011011101100000000000000000111111100000000100111101110001100000000000000001010100000000000010010010000000011110111100110100000000000000000010101111101111100000000011111010000000000000000010000100111100100000000
1000000100000000000000000110100100000000011101001101111000000000000000000000000001111111110100111101100100000000101111110000000001110101000000000000000001000000100000010000000000000000011011111000000100000000011111110000000000000000100000010000000011000001
0111111100000000110011010000000000000000110101100100100000000000110100000011111100000000000000000011101100000000000000001001101010111001000000001110101100000000000000000000000010000101100000010000000000101110000000001100100100111110000000000000000001000010
1000000100000011000000000000000001100101000000000000000000010101000000000100001000000000000000001101000010110000000000000000000010111110000000000000000010000001000000000000000001111111000000100000000000101110010001000000000010000001000000000000000001010000
0011100100000000000000000101010100000000000000001000000111001000000000000000000001000110000000010000000010000001111001100000000000011001000000000010010100000000010100000000000001111111000000001000011100000000000000000111011000000000000000001010111110000001
0000000000011100000000001110010000000000000000000111101011001101000000000000000000000100100000010000000010101101111011000000000000000000000000001011000000000011001001110000000000000000011010110000000001001000110011010000000000000000011110111111010000000000
0111111100000000000000000000010000000000100101110000000001100110111011100000000000000110000000000000000010101100000000001111110111111000000000000000000010100110000000000000000001110101100100011100010000000000000000001100010000000000001001101110011100000000
1110100100000000000000001101110000000000100000010000000011001011010100011001000000000000000000000011010010000010000000000000000000101010000000000000000001110011100000010000000000000000101000010000000011110101001101110000000000011101000000000000000011011000
0111001100000000101101100000000000000000000000000011110100100110000000000010011100000000110001010000000010000001000000001101100000001000000000001111000100000000000000000000000001101010110011010000011100100011000000000000000000111101000000000000000001001010
0111111100000000101111000000000001000000000000000000000000111000111111010000000000000000110111000000000010011010101000010000000010111100000000000000000000000100110010100000000000000000101110011001111000000000101000010000000001111111000000001111100100000000
0000000011101011101111100000000001000110000000000110100000000000000000000111100100000000100000011101101100000000100000010000000000000000111000010000000010110111000000001000000101011111000000000111111100010111000000000000000000000000011101010001100100000000
1010001000000000101001000000000010000001000100100000000000000000011000110000000001010101000000000000000010000001100000010000000000000000000000001000000100001110100000010000000000000000100010000010001000000000000000001101001001111111110000000000000000000000
1011010100000000000000000100011110000001000000000000000100000000011000010000000011011100000000001100110100000000000000000010101100000000011011110000000000011001000000001011101001111100000000001010011000000000000000001000000100000000100011100000000001111111
0001010100000000000000000000110000000000100000010101100000000000000000001111101000000000111011000100101010100011000000000000000000000000101110010000000010101010111111010000000011011001000000000000000000100111000000000000010011111000000000000101111100000000
0100011110110101000000000000000000000000100000010111111100000000000000001111101110000001000000000000000010000001100000010000000011111011000000000111100100000000000000001000000101111111000000000110000001111011000000000000000011011000000000001101000100000000
0000000011111100000000001000000100000000000000000111111101101010000000001000010100001010000000000000000010000001111100010000000000000000000000000000101010101000000000001010100101111111000000000111111101111110000000000000000010000001000000000000000001001101
0000000000000000001110011011100000000000101111100000000001111111000000001110001111100101000000000000000011000110000000000100001010110011000000000000000010001000011001101000000100000000000000000000000001111111100011100000000010000001000000001100001000000000
0000000000000111000111000000000000000000101110010000000000110011000000001001010010100010000000000000000010110110000000000101101100000000000000000001110100100011000000001001100001010111000000000011000000000000000000001101000100000000000000001000000101010101
0000010010000001000000000000000000000000101011010111111100000000000000000110001000000000000011010000000000111011100111000000000001010011000001010000000000000000000000001000000100000000011111110110101001111111000000000000000011100011000000000000000011100101
1101000000100100000000000000000000001001000000000000000011100110000000000011011001000110000000000000000000000000011111111000000101010100000000001100111100000000110101110010001000000000000000001001010100000000000000001010110101111111000000000000000010001011
0000000000101111110000110000000000000000110111110000000010100111101110010000000010000110000000000001001000000000000000000010010000000000111100101001100100000000000000000000000001111111000011111010001000000000000000001000000101100100000000001110111000000000
0110100000000000110000010000000000000000101001010011001000000000001100000000000000000000101100110011110100000000100000010000000011001100000000000000000000000000000000000000000011110010110101011001111100011001000000000000000000000000010001110000000001111111
0000000000011001110001010000000000110010000000000111111100000000101111000000000000000000100111110100000100000000101011100000000000000000000000001011110010100111101100100000000011000111000000000111111100000000000000001100001101000011000000000000000011100001
0000000000000000101110010000001100000000000000001100101010010110001111110000000001001111000000000000000000000000110101100101000110000001000000000000000000100010000000010111111100000000000000001001111000000000000000001000000101100000000000000100101000000000
0100010000000000111000100000000000010100100000010000000000000000000000001110111100000000101100010000000011100010000000000011100111101010000000000000101000000000000000000010001111001000000000000000100000000000000000000101100001001001000000000010110100000000
0011010100000000000110000000000000000000100000010000000010000001000000000000000011010100110010100000000010100110110010100000000010000001000000000000000000000111010010000010101100000000000000000000000011011100111000010000000000000000000000001000000110000001
0000001000000000001011110000000001000101000000000000111000000000000000000000000000010010000000000000000000100111001101000000000011011111000000001100001100000000111110110000000001110001000000000000000000000000111001111110001100100010000000000000000000000110
0010010000000000111001000000000001111111000000000000000001111111000000001101100000000000111010110000000001001001100011000000000010000001000000000010000100000000111110110000000010011000000000000000000000000000100111011101101100111101000000000000000001111111
0001000100000000000000001000000100000011000000000000000001101100101001100000000000001011000000000000011100000000101110100000000000011010000000000000000000110101100000010000000000000000000111100001101000000000100101100000000000000000111111110000000010001100
0111111111000101000000000000000000001100000000000111111100000000000000000110011100000000100000010000000010000001000000001001010010000001000000000000000010011110000000001000000101111111000000000111000001001011000000000000000010110101000000000000000011010000
0001110100000000000000000100110100000000110101110000000010100111000000000110101010011011000000000000000001001011010010100000000000011010000000000000000000100000101111100000000000000000000101010000001100000000000000000101011100001101000000000111101000000000
1111100011110001000000000000000000000000000000001111110000111000000000000000000011010010111010110001000100000000000000000100110000010111000000000000100000000000000000000000000010011110001111010000000011010100000000001101001000000000000000000000010100000010
0111111100000000000000000011000000000000100000010000000001001010000000000111001100000000101010010000000000000000011111111010100101111001110011000000000000000000000000001000000101100000000000000000000010100010010101000000000001111111000000000000000011101100
1111011100000000101111000000000000000000000000000111101011000101000000000000100000000000100010010000000011111111100000010000000000000000000000000000000011010001100000010000000001111111000000000101000100101001000000000000000011100100000000001000010100000000
0111111100000000101110000000000001111111000000000011101000000000111101100000000000000000100000010000000000101111000000001011001000000000000000000001001001011111000000001111101010000001000000000000000100101000000000000000000001100001000000000000000011010101
0000000000000010010011010000000000000000100000010000000000110011000000000000000010000001011111110000010011010101000000000000000010001010000000000000000010000001000000000000000001111111111011000111111100110101000000000000000000000000000000000111111101111111
0000000010101101001101100000000000000000011010000000000011011100000000001100110100111010000000000000000010000001111101000000000011000101000000000110111000000000111001010000000000000000000110010000000000000000000011010000110000000000000000001100010010000001
0001000011100010000000000000000000000000000000001000000100001101000000000000000010001110111101110000000000000000000100000010001011010011000000000000000000111001001000010000000000000000100000010000110000000000000111000000000000000000101110110111111000000000
0000000000011001000000001111110111100001000000000000000011101110000110110000000000001010000000000000000001000100111011000000000000001101000011010000000000000000010010110000000000010000000000000011000100000000000000001110111111101111000000000000000011011101
1110000000000000000000001000000100000000000001110000000001100111000000001100000110110110000000001101010000000000000000001010011001010000000000001101001100000000001100000000000011100111000000000011100100000000000101110000000000000000000000000000101110100110
1110111100001001000000000000000011100101000000000000000011000001000000000011010000000000111000000011001100000000111001010000000000011010000000001101001000000000000000001100010101111111000000001111001100000000000000001110000000111101000000000000000000001111
0000000001001101000110100000000001010010000000000000000000010011000011100000000000000000101111000110111000000000000000000010111010110101000000000000010100000000011111110000000011011110000000000000000000000000101001011100011100000000000000000011100001101011
0000000000000000101100010000010001110110110110010000000000000000000000000011111100000000000101000000000010111111101000100000000000000000000010000000000011100101010111011100011000000000000000000000000000000110000000001100101100000000010100001100101100000000
1111001100000000000000001110001100010110000000001101001100000000000000001011101000000000010110001101000111110000000000000000000001110111000000000111101100000000000000001110110100010100000000000011110000000000000000000100111111010100000000000110000000000000
0011000000000000000000001010111000000000111100000000000001010001111111100000000000000000101001010000000010101101000010000000000000000000000000000110000011001111010111101000000100000000000000000111101100000000000000001000000111001111000000000000000010111010
0000111100000000001010000000000000000000000000000011111111110101000000001101111011111011000000000000000011111100111110000000000011101100110000110000000000000000000110110000000000000000101100110000111100000000000000001100111000011101000000001111101100000000
0000000010111011001100000000000011010011000000000000000000110010000000001111101011111110000000001101110100000000111111000000000000100011000000001101001000000000000000000000000010000001000110100011110100101011000000000000000011001111000000000000000011111001
0001100000100010000000000000000000010101000000000000000011000110000000000100111101111111000000000100100100000000100010000000000011100101000000000000000011000110000000001100111111111110000000001110110100000000000000000001010000000000111110110000000011011010
0100010100000000000000001000000100000000111010000101110000000000000000000001000000000000010111000000000000000000000111101100110100000000110110110000000010000001000000001101000000000000111110110000000000000000100000011000011100000000000000001100100010100101
0010100000111100000000000000000000000000111111100100100100000000111001000000000011100101000000000111000000001000000000000000000000000000110010000000000011010010011111111110110000000000000000001110011100000000100110010000000000000000000000000011000100011111
0000000010011011111100110000000001011100000000000000000001101010000000000110110100011000000000000000000000000111110010010000000011000011111110010000000000000000000000000010000011010101000000000000000000000001000000000110010100000000000110000000010000000000
0010000000000000010111010000000001010001000000001110011000000000111110000000000000000000000010000000000001000011011111110000000011110011000000000000101000000000000000001101101011001010000000001001110110100101000000000000000000000000001010010000000010101110
0000000000100011110100100000000011000111000000000000000011111011101111010000000011010111000000000010010100000000000000000001110010000001000000000000000011111100010000100000000000000000001100111111001100000000000000001110001000000000000000001101011100000101
0010101011000001000000000000000000010000000000000000000000101000000000000000011000000000010001011111010000000000100000010000000011101011000000000010000000000000101010100000000011110001000000001011111000000000001101100000000000101110000000000000000011001010
0010011100000000110111100000000000000000111000000001010100000000000000000000000000100110001000000000000000000000111011111111011011010000110110010000000000000000000000000000101000000000001010000011100000000000000000001011010100000000000000001100011000010000
0001011110000001000000000000000010000001000000000001001000000000000000001011111100000000111011101000011100000000100110110000000000000000000000000110001101111111000000000000000010000001000010100000000000000000011111111110110100111101000000001110001000000000
0011000110111000000000000000000011110100000000000010000000000000011011100000000000010101000000000000000010110010000000001111010100000000000000001111010000010011100000010000000011110111000000000000000000000000010000011011101001001101000000001111110000000000
0000000000011110000000110000000000000000000001110010001000000000111100000000000000000000000001000000000000100110000000001111000000000110111111010000000000000000000000000000000000010111000000010000000000111000111100100000000000000000000000001100010111110100
0000000000000000101011101100010000111001111000100000000000000000000000000000000000011101001001010101010100001001000000000000000000000000000000001100010011101010000000001011000111101010000000000001111000000000000000001101011100000000000000001100100100010110
1111110000000000000000000001001100000000001110010100110100000000111110110000000011011100000000000000000000000110000000001101111101111111000000000000000011111010000000001110111001100111000000001111111000001010000000000000000000000000110011101110101000000000
0000000000101101000000001111100110111010000000000000000011111110000000000000000011101111000101111101000100000000000000000010000101111111000000000000000010001101000000001000000100001111000000000011010101111111000000000000000000000000111001000000000011000000
1100110000000000001111000000000000000000000000000000001100010001000000001101110100000000011001101011011100000000011111110000000001010010000100000000000000000000000000000000000011101110010010100010110000011010000000000000000000000000000110001010001100000000
0000000011010001000000000001100010110110000000000000000011111111111111100000000000000000110011001011111000110000000000000000000000000000000000000011001011110111000000001100110100110101000000001110001001100001000000000000000011011001111010010000000000000000
0000010000010100000000000000000000000000000000000000110011010100000110011111101000000000000000000000000011111100000000001111000000000000000111010000000000010110110011100010111000000000000000000000000000011001000100100000000000000000000000000001011100011111
0000011000000000111001110000000001010100111110110000000000000000000000000111111100110101000000000011110000110100000000000000000000000000000000000010001111001111000000001101001100000000011111101111001001101011000000000000000000111001111001110000000000000000
0100101111011011000000000000000000111011000000000000000011101000000000000010011000000000001011110011100100000000000000000111000110010111000000001011100100000000000000000011110000000000110000110000000010111101111111000000000000000000000000000111111100001001
0001100011100001000000000000000000010011000000001001111000000000001001000000000000000000111010110000000011111011000000000000001010010101000000000000000000110111110110010100000000000000000000001000100011001010000000000000000011101111000000000100001000000000
1110101100000000000000001101000000000000011011010010011100000000000000000001010000000000001011110100100000000000000000001110010010011100000000000000000010011110010101010010001100000000000000000001110000111110000000000000000000000000000100010000000000101010
0000000000000000100101111100101000011000111010000000000000000000110010010000000011100101000000000100011011001011000000000000000000000000000000001100110111001011000110010000000001000010000000000011001101111111000000000000000000000000000000000001101101000100
0000000000000110000101000000000000000000001110110000000000000100000000000000000011100001101000100000000000000000101011101110111010000001101010000000000000000000000000000000000010000001011101000000000000000000111001110101101011111101011111110000000000000000
0111111100000000101011100000000000000000110000000000000001111111000000001000000100000000100101100100111110010101000000000000000011100100000000001001100000000000101111110000000000000000100000010000000000000000110011111011100111110100000000001100110000000000
0101001010111011000000000000000000000000100000010111111100000000000101010000000000000000110000010000000010000001100000010000000000000000000000000001001100001010100000010001001100000000000000000000000011110010000000001000000100101101000000000000000010011110
0111000111011011000000000000000000000000000000000000110000010011000000000011010100111101000000000000000010000001100000010000000000000000000000001100010111100110111110100000000000000000111001100000000000000000000010000010010100000000000000001010011100100101
0111111100000000101100110000000001011010000000000000000001111111000000001000000100000000101100100100011000000000100111010000000011000001000000000000000011010101111000000010110000000000000000001100001000000000000000001010110100000000011001111110111100000000
0000000000001001110011110000000001111111000000000111011000000000000000000000000000111100100000010000000011100100000000000000000110000110000000000110001000000000000000001010001100000000001011010000000000110000000000001010000111010010011111110000000000000000
0000000010010110100000010000000000000000111010011000000100000000000000000100001101111111000000000000000000000000111011110000110101111111000000000000000001111111100000010000000000000000100101101000000100000000011111110000000001111111000000000000000011000101
0000000011110000000000001111111011011111110001010000000000000000000000000011000111011101000000001100011000000000000000001101000000000000101010111101101000000000000000000000000001111011010011000000000000000000111111100101010000000000000000000111111100101101
0010011000000000111000010000000000111111000000000101101000000000000000001111101000000000111100000010111110100001000000000000000000011101000000001010001000000000111000100000000010101100000000000000000000000000110010011110101111110011000000000001010000000000
1010010000000000010111010000000000000000110100010101000000000000000000000000000010000001111010101000000100000000000000001101111101100001000000000000000010000010000000000000000001111010010001000110100000000000001111110000000010000001000000000100111100000000
0111101011100111000000000000000000011000000000000000000000011101000000000000001100000000000111111111001000000000101001110000000010101111000000000000101100000000000000001110011000000000000011110000000000110011110100110000000000010110000000000000000001010001
0111111100000000101010010000000001111111111000110000000000000000100000010110110000000000000000000110011000000000100000010000000000000000100000010000000010000001000000001001011100111101000000000000000001101011100000010000000000000000011111110011011100000000
0000000000000000111110100000111111001001000000000000000001010001000000001000000100000000100110100000000010110101000000000101101010111010111010000000000000000000000000001001011001111111000000000000000000100001000000001000000100000000001111111000000100000000
0000000010100011100000010000000011011111000000000100011100000000000000000000000001110101111100110100001000000000100000010000000000000010000000000000000011100010100110011000000100000000000000001111000001111111000000000000000000100101000000001000000100000000
1110111100000000110110010000000000000000100000011000000100000000000000000000000001010100100000010000000000000000110111101000000100000000110110101100100100000000000000001000000100000000100000011000000110100000000000000000000001111111000000001101001000000000
0000000000000000101100010100001110110111000111100000000000000000000000000000000010010100111100001101101100000000100001110000000000000000000000001101000011000110000000001110101101011001000000000000000000111011110111100000000001001101000000000000000000100110
0000000010010110000000000111111100000000000000001000000101000100000000000000000010000001100100110000000010000001000000000111111100000000110010110000000001111111110100000000000000000000000111101000000100000000000000001101100000000000000000000111111101111111
0000000000000000110101101010001100101110000000000111111100000000000000000000000001011011101001110010001100000000100000110000000011111111000000001010001100000000000000000001111011000101000000000000000001000000000000001100110100100001000000000000000011100110
0111111100000000100111110000000000000000000000000000111110111011000000000010011000111101000000000000000000000000110001000001011011101100000000000000000000111110100010100100110100000000000000000000000011100000000000001000000101111111010101010000000000000000
0100010100000000101010100000000000011100000000001100010100000000000000000000000001111111100111000101111000000000000000000110100011100111000000000000000011100111000000000000000000000100101100001110101100000000110110110000000001111111000000000000000001100000
0011010011111011000000000000000000101001100000010000000000000000000000001000000110000001000000000000000000000000100010110111111110000001000000000000000011101000000000000000010101111111000000000000000000000000110111001000000100000000000000001001110001111111
0000000000000000011010110001011000100011111110100000000000000000000000000000000000110000111101000000000000000000001000010100110111111101000000000000000011000010000000000000000001011110011111110111111100001101000000000000000000000000111110100111101100000000
0110011100000000100000010000000001111111000000000000000001111011000000001011111100000000111010000000000000000011100110000000000010000001000000000000000000010101000000000110000110000001000000000111111100000000000000001100010000111100000000000000000001111111
1100111100000000111111110000000000000000000000000111111101010011000000000000000001111111001001110000000000000000100000011000000100001001000000000000000010110011100000010000000010000001000000000000000001001100000000001001000011111111000000000000000010011100
0000000010000001000000000101000100000000000110010000011000000000000000000111111100000000100000010000000000000000001000101001111100001001000000001000000100000000000000001010100100000000000111011000010000000000010101110000000000000000000000000110001000000010
0101001000000000000000001100100000000000000000000110001110111010110011110001010100000000000000000111111100000000110111110000000011011100100000010000000000000000000000000000101100010001000000000110111000000000000000001101010100010001000000000000000001000101
0000000000000000110010000000100100100000000000000000011100000000000000001000000100000000110000010000000000000000100100110100011100101011000000000000000011010010000000000010100000000000000100100000000011010010111100000000000000000000000000000000011111111011
0111111100000000111010000000000000000011000000000111111100000000000000000000000011000100100110110000000010110010100000010000000000000000100101101110100000000000100000010000000000110001000000000010010100000000000000000010000000000000001101110000000011010010
0011101000000000000000000011110110010011001010010000000000000000010101110000000000000000000011111101001000000000111101010000000001011011000000001010110100000000000000000000000001111111011111110111111100000000001100100000000000000000100001100000000011000010
0111111100000000110010000000000000000000111001110011000000000000000000000000000000100001101000100100000100000000101001010000000010000001000000000000000000010001110001110000000010000001000000001100101000000000000000001001001101001111000000000000000001000100
1011000110111010000000000000000001011010000000000000000010011100000000000010100100000000110100101110010000000000011000010000000011110001000000000000000010100110000000000000000000111000000100100100101100000000010000000000000011011100000000000000000001001010
0101110011010000000000000000000011011110000000000000000011100011000000001100000100100000000000000000000010000001010010110000000011101010000000000001101000000000000000001000000110100101000000001111010101000110000000000000000000000000000000001001101010001011
