memory_initialization_radix=2;
memory_initialization_vector=
11110111,
11111001,
00000001,
00111100,
11100111,
10111001,
00001111,
00001100,
11100101,
11011000,
10110111,
11010001,
00111111,
11001000,
11001101,
11010101,
01000001,
11110111,
00000100,
01010111,
11110011,
00010001,
11111110,
11010100,
11011111,
11010111,
00100110,
00011000,
00101000,
00010111,
00001101,
10111100,
11000101,
11110100,
00111100,
11010011,
11100110,
10000001,
11010101,
01101111,
10101001,
00100100,
00100111,
00100101,
11101001,
11110101,
00100101,
00000111,
11010011,
10000110,
01011001,
11101000,
00100010,
10111000,
00100001,
00001111,
00001110,
00111101,
00011000,
00011111,
00100110,
10110110,
00100000,
00010101,
11110011,
11111101,
11101000,
00100001,
11111111,
00001000,
00001001,
11111100,
00001000,
11100100,
00001101,
00010110,
11111101,
00010011,
11011100,
00001000,
11111111,
00011001,
00010111,
00001101,
11101111,
00001101,
00000010,
00000001,
00001111,
11111101,
11111011,
00101100,
00001001,
00010101,
11111011,
00001010,
11110010,
11110001,
00001110,
11110001,
00011100,
11001010,
11101111,
11000100,
11010001,
11010010,
00000111,
11010110,
11111100,
11111000,
11000000,
00000111,
11111100,
11110111,
10110100,
00011011,
11011000,
00001000,
00100001,
00101010,
00100110,
11110001,
00100001,
10111000,
00100010,
00100101,
11111110,
11110101,
;