1110011000001100
1100001011111010
1011011011010011
0000110100111011
0010101000010010
1100000011001101
0011111100001111
1100101110111111
1111110000101010
0010110000101010
1101110000100111
0001000000000110
0000001011111010
1101010100100110
1010100111100011
1000000111111100
0010010100001010
1100110111110110
1111000111110110
0001001100010010
1111111000000001
0010001111101111
1010001010110111
0000100000001010
1001100010110100
0000010100010000
1110000100011111
1011010111010100
1111011100001000
1101000111100000
0010000000100010
1101010011101001
1111010000000110
1110101000011000
1101100011111011
1111100100001001
0011101100101110
1101101011000111
0000011011111100
1100111111011110
1111110000101100
1111011100000110
1111110100001010
1111010100001101
1110101111100101
0001010000100111
0001101100001111
1101011111110001
0011000000001000
1101001111111101
1111111100000000
0001111000010111
0000001111110101
0011000100000101
1010000111010100
0010110100011011
1011110111101100
1111001100100011
1101011100100001
1110010111110000
1110111000010110
1100101000001111
0000010111111001
1101010111110110
1111101011101001
0000010011100011
1111110111110101
0001000011011110
1110000000001101
0000001100000101
1101010100010000
1110110111101000
1110101000100110
0000010011010101
0010000011100100
0011000100001101
1111110000101001
1111000011100110
1101101000000100
1101001011100111
1110101000100000
1110110000011000
1110111000000011
1110100100101111
0000111011100010
0000011111010110
0000000000010000
1110011011101111
1111101100001001
1111001100100111
0000010000100001
0000001000010101
1101111100001101
0001110011101001
1101111100011011
1100001100000100
1101101100000010
1101000100011110
1011001111100000
0010010100110001
0011101000100011
1101101111010001
0010001000010111
1100100111000010
0000100000101100
0000011011111110
1110011000011001
0000100000101100
1111100100001100
1101110000011110
1100000011011001
1001011000000101
0001000000011100
1110010100011001
1100100111101100
0011011100100110
1101101111100010
0010110100000110
1010011111001000
0010001111100110
1000011011011001
0000101100011000
1111101100010010
1101000111110001
1111111000100100
1100111000000111
0000010100001010
1100110011100111
